7
conv.weight 27 bdb2b664 bda6da94 3f02f137 bca0d2d7 3d2fe190 be578f5a 3d5de7fd 3c4bcb36 bec206f9 3f3b5c47 bcf78793 be12176a befb4be9 beb6501b 3dfca450 3e9f28a3 3d8a92ea bef7665c bbe3712d 3da62ddc 3cf4ffa5 be342203 3deede0a 3ecdb08a bef8ff72 3ee06553 be4430e3
conv.bias 3 3e3986f6 bea6d5da 3e53997b
norm.weight 3 3f866666 3f866666 3f866666
norm.bias 3 3d4ccccd 3d4ccccd 3d4ccccd
norm.running_mean 3 00000000 00000000 00000000
norm.running_var 3 3f800000 3f800000 3f800000
norm.num_batches_tracked 1 00000000
